#pragma once
// Model size: 3072 bytes
const unsigned char model[] = {
    0x1c, 0x00, 0x00, 0x00, 0x54, 0x46, 0x4c, 0x33, 0x14, 0x00, 0x20, 0x00,
    0x1c, 0x00, 0x18, 0x00, 0x14, 0x00, 0x10, 0x00, 0x0c, 0x00, 0x00, 0x00,
    0x08, 0x00, 0x04, 0x00, 0x14, 0x00, 0x00, 0x00, 0x1c, 0x00, 0x00, 0x00,
    0x98, 0x00, 0x00, 0x00, 0xf0, 0x00, 0x00, 0x00, 0x80, 0x05, 0x00, 0x00,
    0x90, 0x05, 0x00, 0x00, 0x9c, 0x0b, 0x00, 0x00, 0x03, 0x00, 0x00, 0x00,
    0x01, 0x00, 0x00, 0x00, 0x10, 0x00, 0x00, 0x00, 0x00, 0x00, 0x0a, 0x00,
    0x10, 0x00, 0x0c, 0x00, 0x08, 0x00, 0x04, 0x00, 0x0a, 0x00, 0x00, 0x00,
    0x0c, 0x00, 0x00, 0x00, 0x1c, 0x00, 0x00, 0x00, 0x3c, 0x00, 0x00, 0x00,
    0x0f, 0x00, 0x00, 0x00, 0x73, 0x65, 0x72, 0x76, 0x69, 0x6e, 0x67, 0x5f,
    0x64, 0x65, 0x66, 0x61, 0x75, 0x6c, 0x74, 0x00, 0x01, 0x00, 0x00, 0x00,
    0x04, 0x00, 0x00, 0x00, 0x90, 0xff, 0xff, 0xff, 0x0a, 0x00, 0x00, 0x00,
    0x04, 0x00, 0x00, 0x00, 0x08, 0x00, 0x00, 0x00, 0x6f, 0x75, 0x74, 0x70,
    0x75, 0x74, 0x5f, 0x30, 0x00, 0x00, 0x00, 0x00, 0x01, 0x00, 0x00, 0x00,
    0x04, 0x00, 0x00, 0x00, 0x66, 0xfa, 0xff, 0xff, 0x04, 0x00, 0x00, 0x00,
    0x0c, 0x00, 0x00, 0x00, 0x6b, 0x65, 0x72, 0x61, 0x73, 0x5f, 0x74, 0x65,
    0x6e, 0x73, 0x6f, 0x72, 0x00, 0x00, 0x00, 0x00, 0x02, 0x00, 0x00, 0x00,
    0x34, 0x00, 0x00, 0x00, 0x04, 0x00, 0x00, 0x00, 0xdc, 0xff, 0xff, 0xff,
    0x0d, 0x00, 0x00, 0x00, 0x04, 0x00, 0x00, 0x00, 0x13, 0x00, 0x00, 0x00,
    0x43, 0x4f, 0x4e, 0x56, 0x45, 0x52, 0x53, 0x49, 0x4f, 0x4e, 0x5f, 0x4d,
    0x45, 0x54, 0x41, 0x44, 0x41, 0x54, 0x41, 0x00, 0x08, 0x00, 0x0c, 0x00,
    0x08, 0x00, 0x04, 0x00, 0x08, 0x00, 0x00, 0x00, 0x0c, 0x00, 0x00, 0x00,
    0x04, 0x00, 0x00, 0x00, 0x13, 0x00, 0x00, 0x00, 0x6d, 0x69, 0x6e, 0x5f,
    0x72, 0x75, 0x6e, 0x74, 0x69, 0x6d, 0x65, 0x5f, 0x76, 0x65, 0x72, 0x73,
    0x69, 0x6f, 0x6e, 0x00, 0x0e, 0x00, 0x00, 0x00, 0x8c, 0x04, 0x00, 0x00,
    0x84, 0x04, 0x00, 0x00, 0x54, 0x04, 0x00, 0x00, 0x34, 0x04, 0x00, 0x00,
    0xa4, 0x03, 0x00, 0x00, 0x94, 0x01, 0x00, 0x00, 0x04, 0x01, 0x00, 0x00,
    0xb4, 0x00, 0x00, 0x00, 0xac, 0x00, 0x00, 0x00, 0xa4, 0x00, 0x00, 0x00,
    0x9c, 0x00, 0x00, 0x00, 0x94, 0x00, 0x00, 0x00, 0x74, 0x00, 0x00, 0x00,
    0x04, 0x00, 0x00, 0x00, 0x1a, 0xfb, 0xff, 0xff, 0x04, 0x00, 0x00, 0x00,
    0x60, 0x00, 0x00, 0x00, 0x0c, 0x00, 0x00, 0x00, 0x08, 0x00, 0x0e, 0x00,
    0x08, 0x00, 0x04, 0x00, 0x08, 0x00, 0x00, 0x00, 0x10, 0x00, 0x00, 0x00,
    0x28, 0x00, 0x00, 0x00, 0x00, 0x00, 0x06, 0x00, 0x08, 0x00, 0x04, 0x00,
    0x06, 0x00, 0x00, 0x00, 0x04, 0x00, 0x00, 0x00, 0x01, 0x00, 0x00, 0x00,
    0xea, 0x03, 0x00, 0x00, 0x0c, 0x00, 0x18, 0x00, 0x14, 0x00, 0x10, 0x00,
    0x0c, 0x00, 0x04, 0x00, 0x0c, 0x00, 0x00, 0x00, 0x81, 0xd1, 0x90, 0x8a,
    0xf7, 0x88, 0x0b, 0xdc, 0x02, 0x00, 0x00, 0x00, 0x02, 0x00, 0x00, 0x00,
    0x04, 0x00, 0x00, 0x00, 0x06, 0x00, 0x00, 0x00, 0x32, 0x2e, 0x32, 0x31,
    0x2e, 0x30, 0x00, 0x00, 0x86, 0xfb, 0xff, 0xff, 0x04, 0x00, 0x00, 0x00,
    0x10, 0x00, 0x00, 0x00, 0x31, 0x2e, 0x35, 0x2e, 0x30, 0x00, 0x00, 0x00,
    0x00, 0x00, 0x00, 0x00, 0x00, 0x00, 0x00, 0x00, 0x44, 0xf6, 0xff, 0xff,
    0x48, 0xf6, 0xff, 0xff, 0x4c, 0xf6, 0xff, 0xff, 0x50, 0xf6, 0xff, 0xff,
    0xb2, 0xfb, 0xff, 0xff, 0x04, 0x00, 0x00, 0x00, 0x40, 0x00, 0x00, 0x00,
    0xe4, 0x2a, 0x31, 0xbf, 0xa1, 0xe9, 0xdd, 0xbd, 0xaa, 0x4c, 0x07, 0x3c,
    0x00, 0x00, 0x00, 0x00, 0xc2, 0x82, 0x50, 0xbf, 0x00, 0x00, 0x00, 0x00,
    0xaf, 0xa1, 0x73, 0x3f, 0x65, 0x46, 0x1c, 0xbf, 0x6e, 0xb8, 0x8f, 0x3f,
    0x56, 0x6b, 0x70, 0x3f, 0x00, 0x00, 0x00, 0x00, 0x00, 0x00, 0x00, 0x00,
    0x00, 0x00, 0x00, 0x00, 0x00, 0x00, 0x00, 0x00, 0x0d, 0x48, 0x53, 0xbf,
    0xae, 0xf0, 0x34, 0x3f, 0xfe, 0xfb, 0xff, 0xff, 0x04, 0x00, 0x00, 0x00,
    0x80, 0x00, 0x00, 0x00, 0xc9, 0xb9, 0x15, 0x3f, 0x98, 0x49, 0x37, 0xbe,
    0x40, 0x0d, 0xd6, 0x3e, 0x5c, 0x98, 0xcb, 0x3e, 0x39, 0x6e, 0x15, 0x3f,
    0xa0, 0x61, 0xba, 0x3e, 0x6c, 0x8d, 0xc1, 0xbd, 0x00, 0x06, 0xbc, 0xbe,
    0x57, 0x44, 0xba, 0x3e, 0x6a, 0x62, 0x1a, 0xbd, 0x76, 0xae, 0x0d, 0xbf,
    0x66, 0x4f, 0xf9, 0xbe, 0x9c, 0xcb, 0x1c, 0xbc, 0x2c, 0x3a, 0x9c, 0x3e,
    0x83, 0xc2, 0x0c, 0x3f, 0xa0, 0xd1, 0xa3, 0x3e, 0x54, 0x54, 0x14, 0x3f,
    0x2d, 0xcf, 0x8d, 0xbe, 0x0b, 0x8f, 0x13, 0x3f, 0xfc, 0xf0, 0x1c, 0xbe,
    0x24, 0x80, 0x35, 0xbe, 0x37, 0xfa, 0xba, 0xbe, 0x7c, 0x9c, 0x13, 0xbf,
    0xf4, 0x69, 0xa9, 0xbe, 0x80, 0x5d, 0xe2, 0x3c, 0xaa, 0x68, 0x00, 0xbf,
    0x3e, 0x8e, 0xf7, 0xbe, 0x46, 0x13, 0x07, 0xbe, 0x2f, 0x9c, 0x0a, 0x3f,
    0x07, 0xf3, 0xae, 0x3e, 0x33, 0x2f, 0x08, 0xbe, 0xd2, 0x18, 0xca, 0x3e,
    0x8a, 0xfc, 0xff, 0xff, 0x04, 0x00, 0x00, 0x00, 0x00, 0x02, 0x00, 0x00,
    0x68, 0x4d, 0xb3, 0x3e, 0xd0, 0x99, 0x0f, 0xbe, 0xf8, 0xfa, 0x21, 0xbe,
    0x00, 0x97, 0x42, 0xbe, 0x50, 0x23, 0xa4, 0x3e, 0x20, 0x0e, 0x0a, 0x3d,
    0xf0, 0x13, 0xf4, 0x3d, 0xa0, 0xea, 0x5d, 0x3d, 0x70, 0xd0, 0xbb, 0x3d,
    0xe0, 0xdb, 0x77, 0xbe, 0x20, 0xa6, 0x91, 0x3e, 0x28, 0x01, 0x4c, 0xbe,
    0x20, 0x4e, 0xcf, 0xbd, 0x48, 0x79, 0x5e, 0x3e, 0xc8, 0xe1, 0x5e, 0xbe,
    0x74, 0x0f, 0xab, 0x3e, 0x52, 0x0b, 0xc5, 0x3d, 0x7c, 0x00, 0xf7, 0x3e,
    0x42, 0x0f, 0x0b, 0xbe, 0x50, 0x7b, 0x29, 0xbe, 0x7b, 0xd0, 0xbb, 0x3e,
    0x80, 0x50, 0x33, 0xbc, 0x7c, 0xe4, 0x90, 0xbe, 0xba, 0x3c, 0xa4, 0x3c,
    0x43, 0xe4, 0x0d, 0xbf, 0x53, 0x8b, 0xf4, 0xbe, 0x7c, 0xe8, 0xb7, 0xbe,
    0xb0, 0x63, 0x6e, 0x3e, 0x80, 0x9a, 0x5c, 0xbd, 0x28, 0x28, 0xfd, 0xbe,
    0xb6, 0x23, 0x9c, 0x3e, 0x62, 0x8c, 0x43, 0xbe, 0x78, 0xf0, 0xef, 0xbe,
    0xb8, 0x18, 0x60, 0x3e, 0xc8, 0x3b, 0x0b, 0xbe, 0x90, 0x5a, 0xd8, 0xbd,
    0x84, 0x61, 0xcd, 0x3e, 0xb4, 0x19, 0xdc, 0xbe, 0xe8, 0x7f, 0xc2, 0xbe,
    0x30, 0x66, 0xe5, 0xbd, 0xb0, 0xfa, 0xd0, 0x3e, 0x80, 0xb1, 0xa6, 0xbe,
    0x88, 0xd6, 0xe9, 0xbe, 0x88, 0xe1, 0x16, 0x3e, 0xbc, 0x6c, 0xaf, 0xbe,
    0xe8, 0x28, 0xc1, 0x3e, 0x20, 0xc1, 0xea, 0xbe, 0xfc, 0x50, 0xa4, 0x3e,
    0x3c, 0xa9, 0x87, 0xbe, 0xa5, 0xf9, 0xfd, 0x3d, 0xa5, 0x1a, 0x9c, 0x3d,
    0x1c, 0x25, 0xfc, 0x3e, 0x29, 0x8b, 0x5c, 0x3e, 0x58, 0x97, 0x68, 0x3e,
    0x07, 0xe7, 0x2c, 0x3e, 0x46, 0x7e, 0xa7, 0xbe, 0x10, 0xf0, 0x67, 0x3e,
    0x4e, 0xdb, 0xc7, 0x3e, 0xdc, 0x21, 0x90, 0xbe, 0x04, 0x28, 0xf1, 0xbe,
    0x94, 0xfe, 0xcb, 0x3e, 0x20, 0x7e, 0xeb, 0xbd, 0x07, 0xb5, 0x9f, 0xbd,
    0x41, 0xa2, 0x28, 0xbf, 0x00, 0x5e, 0x32, 0x3c, 0x60, 0x46, 0xf5, 0xbd,
    0x10, 0xa1, 0xb2, 0x3d, 0xac, 0x7f, 0xc7, 0x3e, 0x60, 0xed, 0xfc, 0xbe,
    0xa8, 0x73, 0x9f, 0x3e, 0x30, 0x7a, 0x6b, 0xbe, 0xd0, 0xdc, 0xa4, 0xbe,
    0x8c, 0x05, 0xae, 0xbe, 0xc0, 0xef, 0xa0, 0x3e, 0xd8, 0x14, 0xc8, 0x3e,
    0x40, 0x51, 0x67, 0x3e, 0xc8, 0xd0, 0x1d, 0xbe, 0xc8, 0x4b, 0x04, 0x3e,
    0x2c, 0xcb, 0x93, 0xbe, 0x00, 0x5f, 0x97, 0xbc, 0x23, 0xd9, 0x7d, 0xbe,
    0x38, 0x12, 0xf6, 0x3e, 0xf6, 0x1d, 0x15, 0xbe, 0x14, 0xc8, 0xa4, 0xbe,
    0xb4, 0x26, 0x8e, 0xbe, 0x00, 0xa9, 0xc9, 0xbd, 0xf2, 0x7a, 0x51, 0x3c,
    0x3f, 0x9d, 0xcd, 0xbd, 0x00, 0x88, 0x20, 0x3e, 0x7f, 0xfc, 0x17, 0xbe,
    0x10, 0x2e, 0xd6, 0x3d, 0xc8, 0xc5, 0xb9, 0xbe, 0x2c, 0x54, 0x8a, 0x3e,
    0xa0, 0x8c, 0x27, 0x3e, 0xae, 0x3d, 0x21, 0xbe, 0x16, 0xab, 0x00, 0x3f,
    0xd8, 0xe1, 0xa7, 0xbe, 0x20, 0x68, 0xf5, 0xbd, 0x90, 0x25, 0xfe, 0xbe,
    0x3c, 0x2f, 0xb4, 0x3e, 0x38, 0xb7, 0x55, 0xbe, 0x08, 0x1d, 0x47, 0xbe,
    0x58, 0x69, 0xf0, 0xbe, 0x6c, 0x94, 0xe8, 0x3e, 0x8c, 0x46, 0xa3, 0xbe,
    0x40, 0x20, 0x99, 0xbe, 0xa0, 0xa3, 0x4f, 0xbd, 0x9c, 0x57, 0xd5, 0xbe,
    0x44, 0x99, 0xfd, 0x3e, 0x34, 0x8e, 0x8e, 0x3e, 0x60, 0x32, 0xd3, 0x3d,
    0xa0, 0x93, 0x08, 0xbd, 0x82, 0x46, 0x3e, 0x3e, 0x67, 0x8e, 0xa0, 0xbd,
    0xd3, 0x86, 0xc7, 0x3c, 0x10, 0x5b, 0xb4, 0xbe, 0x5d, 0xf1, 0x7c, 0x3e,
    0x00, 0x8e, 0x8a, 0x3e, 0xdb, 0x4c, 0x48, 0xbd, 0x5b, 0x0f, 0xa2, 0xbc,
    0xc3, 0x1b, 0xa5, 0x3e, 0x28, 0xd1, 0x12, 0x39, 0x40, 0x6c, 0x7a, 0xbd,
    0x3c, 0x9e, 0xe5, 0xbe, 0xd0, 0x72, 0x03, 0x3e, 0xa8, 0x85, 0xaa, 0xbe,
    0xa3, 0xf1, 0xe7, 0x3d, 0x7d, 0x22, 0xd5, 0xbe, 0x96, 0xfe, 0xff, 0xff,
    0x04, 0x00, 0x00, 0x00, 0x80, 0x00, 0x00, 0x00, 0xcf, 0xb7, 0xc5, 0xbe,
    0x07, 0xb1, 0x1f, 0xbf, 0xf2, 0x3c, 0xfc, 0xbe, 0xbc, 0x64, 0x1f, 0xbe,
    0x7e, 0x51, 0xfd, 0xbe, 0xd0, 0x58, 0x3b, 0x3f, 0x84, 0xa9, 0x4c, 0x3e,
    0x8b, 0x3c, 0x9d, 0xbf, 0x5d, 0xce, 0x2d, 0xbf, 0x0e, 0x72, 0x37, 0x3e,
    0x78, 0x34, 0xc6, 0xbd, 0xe6, 0x8d, 0xff, 0x3e, 0x99, 0xfd, 0xbf, 0xbe,
    0x50, 0x91, 0x86, 0xbe, 0xe9, 0x2b, 0xe7, 0xbe, 0xa0, 0xc0, 0x27, 0xbf,
    0x86, 0x57, 0xdb, 0xbe, 0x68, 0xad, 0x03, 0xbf, 0x8c, 0xc4, 0x60, 0xbe,
    0xe6, 0x12, 0x63, 0xbe, 0x58, 0xf7, 0x90, 0x3d, 0x5a, 0x5e, 0x7e, 0x3e,
    0xb3, 0xf4, 0x14, 0xbf, 0x2e, 0xf5, 0xc7, 0x3c, 0xd2, 0x98, 0xe5, 0x3e,
    0xfe, 0x95, 0xb8, 0x3c, 0x90, 0x91, 0x9f, 0xbd, 0x51, 0x4a, 0x4d, 0x3f,
    0x52, 0xce, 0xa7, 0x3e, 0xa5, 0x8d, 0x60, 0xbf, 0x20, 0xf9, 0xc6, 0x3c,
    0xf5, 0x90, 0x38, 0x3e, 0x22, 0xff, 0xff, 0xff, 0x04, 0x00, 0x00, 0x00,
    0x10, 0x00, 0x00, 0x00, 0xa9, 0x2c, 0x85, 0xbe, 0xde, 0xbf, 0x65, 0xbf,
    0xad, 0x51, 0xb4, 0x3f, 0xfa, 0x80, 0x41, 0xbf, 0x3e, 0xff, 0xff, 0xff,
    0x04, 0x00, 0x00, 0x00, 0x20, 0x00, 0x00, 0x00, 0x00, 0x00, 0x00, 0x00,
    0xf3, 0x24, 0x71, 0xbf, 0x00, 0x00, 0x00, 0x00, 0xc7, 0xbc, 0x83, 0xbe,
    0x00, 0x00, 0x00, 0x00, 0x1f, 0x1c, 0x36, 0x3f, 0x00, 0x00, 0x00, 0x00,
    0xbf, 0x25, 0x13, 0x3e, 0x0c, 0xfa, 0xff, 0xff, 0x10, 0xfa, 0xff, 0xff,
    0x0f, 0x00, 0x00, 0x00, 0x4d, 0x4c, 0x49, 0x52, 0x20, 0x43, 0x6f, 0x6e,
    0x76, 0x65, 0x72, 0x74, 0x65, 0x64, 0x2e, 0x00, 0x01, 0x00, 0x00, 0x00,
    0x14, 0x00, 0x00, 0x00, 0x00, 0x00, 0x0e, 0x00, 0x18, 0x00, 0x14, 0x00,
    0x10, 0x00, 0x0c, 0x00, 0x08, 0x00, 0x04, 0x00, 0x0e, 0x00, 0x00, 0x00,
    0x14, 0x00, 0x00, 0x00, 0x1c, 0x00, 0x00, 0x00, 0x34, 0x01, 0x00, 0x00,
    0x38, 0x01, 0x00, 0x00, 0x3c, 0x01, 0x00, 0x00, 0x04, 0x00, 0x00, 0x00,
    0x6d, 0x61, 0x69, 0x6e, 0x00, 0x00, 0x00, 0x00, 0x04, 0x00, 0x00, 0x00,
    0xdc, 0x00, 0x00, 0x00, 0x94, 0x00, 0x00, 0x00, 0x50, 0x00, 0x00, 0x00,
    0x14, 0x00, 0x00, 0x00, 0x00, 0x00, 0x0e, 0x00, 0x1a, 0x00, 0x14, 0x00,
    0x10, 0x00, 0x0c, 0x00, 0x0b, 0x00, 0x04, 0x00, 0x0e, 0x00, 0x00, 0x00,
    0x1c, 0x00, 0x00, 0x00, 0x00, 0x00, 0x00, 0x09, 0x1c, 0x00, 0x00, 0x00,
    0x20, 0x00, 0x00, 0x00, 0x01, 0x00, 0x00, 0x00, 0x00, 0x00, 0x06, 0x00,
    0x08, 0x00, 0x04, 0x00, 0x06, 0x00, 0x00, 0x00, 0x00, 0x00, 0x80, 0x3f,
    0x01, 0x00, 0x00, 0x00, 0x0a, 0x00, 0x00, 0x00, 0x01, 0x00, 0x00, 0x00,
    0x09, 0x00, 0x00, 0x00, 0xce, 0xff, 0xff, 0xff, 0x10, 0x00, 0x00, 0x00,
    0x00, 0x00, 0x00, 0x08, 0x0c, 0x00, 0x00, 0x00, 0x10, 0x00, 0x00, 0x00,
    0xd4, 0xfa, 0xff, 0xff, 0x01, 0x00, 0x00, 0x00, 0x09, 0x00, 0x00, 0x00,
    0x03, 0x00, 0x00, 0x00, 0x08, 0x00, 0x00, 0x00, 0x03, 0x00, 0x00, 0x00,
    0x02, 0x00, 0x00, 0x00, 0x00, 0x00, 0x0e, 0x00, 0x14, 0x00, 0x00, 0x00,
    0x10, 0x00, 0x0c, 0x00, 0x0b, 0x00, 0x04, 0x00, 0x0e, 0x00, 0x00, 0x00,
    0x10, 0x00, 0x00, 0x00, 0x00, 0x00, 0x00, 0x08, 0x10, 0x00, 0x00, 0x00,
    0x14, 0x00, 0x00, 0x00, 0xba, 0xff, 0xff, 0xff, 0x00, 0x00, 0x00, 0x01,
    0x01, 0x00, 0x00, 0x00, 0x08, 0x00, 0x00, 0x00, 0x03, 0x00, 0x00, 0x00,
    0x07, 0x00, 0x00, 0x00, 0x04, 0x00, 0x00, 0x00, 0x01, 0x00, 0x00, 0x00,
    0x00, 0x00, 0x0e, 0x00, 0x16, 0x00, 0x00, 0x00, 0x10, 0x00, 0x0c, 0x00,
    0x0b, 0x00, 0x04, 0x00, 0x0e, 0x00, 0x00, 0x00, 0x18, 0x00, 0x00, 0x00,
    0x00, 0x00, 0x00, 0x08, 0x18, 0x00, 0x00, 0x00, 0x1c, 0x00, 0x00, 0x00,
    0x00, 0x00, 0x06, 0x00, 0x08, 0x00, 0x07, 0x00, 0x06, 0x00, 0x00, 0x00,
    0x00, 0x00, 0x00, 0x01, 0x01, 0x00, 0x00, 0x00, 0x07, 0x00, 0x00, 0x00,
    0x03, 0x00, 0x00, 0x00, 0x00, 0x00, 0x00, 0x00, 0x05, 0x00, 0x00, 0x00,
    0x06, 0x00, 0x00, 0x00, 0x01, 0x00, 0x00, 0x00, 0x0a, 0x00, 0x00, 0x00,
    0x01, 0x00, 0x00, 0x00, 0x00, 0x00, 0x00, 0x00, 0x0b, 0x00, 0x00, 0x00,
    0x44, 0x04, 0x00, 0x00, 0xc4, 0x03, 0x00, 0x00, 0x60, 0x03, 0x00, 0x00,
    0x10, 0x03, 0x00, 0x00, 0xc0, 0x02, 0x00, 0x00, 0x74, 0x02, 0x00, 0x00,
    0x10, 0x02, 0x00, 0x00, 0x7c, 0x01, 0x00, 0x00, 0xe0, 0x00, 0x00, 0x00,
    0x60, 0x00, 0x00, 0x00, 0x04, 0x00, 0x00, 0x00, 0xfe, 0xfb, 0xff, 0xff,
    0x00, 0x00, 0x00, 0x01, 0x14, 0x00, 0x00, 0x00, 0x1c, 0x00, 0x00, 0x00,
    0x1c, 0x00, 0x00, 0x00, 0x0b, 0x00, 0x00, 0x00, 0x34, 0x00, 0x00, 0x00,
    0x02, 0x00, 0x00, 0x00, 0xff, 0xff, 0xff, 0xff, 0x04, 0x00, 0x00, 0x00,
    0xe8, 0xfb, 0xff, 0xff, 0x1b, 0x00, 0x00, 0x00, 0x53, 0x74, 0x61, 0x74,
    0x65, 0x66, 0x75, 0x6c, 0x50, 0x61, 0x72, 0x74, 0x69, 0x74, 0x69, 0x6f,
    0x6e, 0x65, 0x64, 0x43, 0x61, 0x6c, 0x6c, 0x5f, 0x31, 0x3a, 0x30, 0x00,
    0x02, 0x00, 0x00, 0x00, 0x01, 0x00, 0x00, 0x00, 0x04, 0x00, 0x00, 0x00,
    0x56, 0xfc, 0xff, 0xff, 0x00, 0x00, 0x00, 0x01, 0x14, 0x00, 0x00, 0x00,
    0x1c, 0x00, 0x00, 0x00, 0x1c, 0x00, 0x00, 0x00, 0x0a, 0x00, 0x00, 0x00,
    0x58, 0x00, 0x00, 0x00, 0x02, 0x00, 0x00, 0x00, 0xff, 0xff, 0xff, 0xff,
    0x04, 0x00, 0x00, 0x00, 0x40, 0xfc, 0xff, 0xff, 0x3c, 0x00, 0x00, 0x00,
    0x73, 0x65, 0x71, 0x75, 0x65, 0x6e, 0x74, 0x69, 0x61, 0x6c, 0x5f, 0x31,
    0x2f, 0x64, 0x65, 0x6e, 0x73, 0x65, 0x5f, 0x32, 0x5f, 0x31, 0x2f, 0x4d,
    0x61, 0x74, 0x4d, 0x75, 0x6c, 0x3b, 0x73, 0x65, 0x71, 0x75, 0x65, 0x6e,
    0x74, 0x69, 0x61, 0x6c, 0x5f, 0x31, 0x2f, 0x64, 0x65, 0x6e, 0x73, 0x65,
    0x5f, 0x32, 0x5f, 0x31, 0x2f, 0x42, 0x69, 0x61, 0x73, 0x41, 0x64, 0x64,
    0x00, 0x00, 0x00, 0x00, 0x02, 0x00, 0x00, 0x00, 0x01, 0x00, 0x00, 0x00,
    0x04, 0x00, 0x00, 0x00, 0xd2, 0xfc, 0xff, 0xff, 0x00, 0x00, 0x00, 0x01,
    0x14, 0x00, 0x00, 0x00, 0x1c, 0x00, 0x00, 0x00, 0x1c, 0x00, 0x00, 0x00,
    0x09, 0x00, 0x00, 0x00, 0x74, 0x00, 0x00, 0x00, 0x02, 0x00, 0x00, 0x00,
    0xff, 0xff, 0xff, 0xff, 0x08, 0x00, 0x00, 0x00, 0xbc, 0xfc, 0xff, 0xff,
    0x58, 0x00, 0x00, 0x00, 0x73, 0x65, 0x71, 0x75, 0x65, 0x6e, 0x74, 0x69,
    0x61, 0x6c, 0x5f, 0x31, 0x2f, 0x64, 0x65, 0x6e, 0x73, 0x65, 0x5f, 0x31,
    0x5f, 0x32, 0x2f, 0x4d, 0x61, 0x74, 0x4d, 0x75, 0x6c, 0x3b, 0x73, 0x65,
    0x71, 0x75, 0x65, 0x6e, 0x74, 0x69, 0x61, 0x6c, 0x5f, 0x31, 0x2f, 0x64,
    0x65, 0x6e, 0x73, 0x65, 0x5f, 0x31, 0x5f, 0x32, 0x2f, 0x52, 0x65, 0x6c,
    0x75, 0x3b, 0x73, 0x65, 0x71, 0x75, 0x65, 0x6e, 0x74, 0x69, 0x61, 0x6c,
    0x5f, 0x31, 0x2f, 0x64, 0x65, 0x6e, 0x73, 0x65, 0x5f, 0x31, 0x5f, 0x32,
    0x2f, 0x42, 0x69, 0x61, 0x73, 0x41, 0x64, 0x64, 0x00, 0x00, 0x00, 0x00,
    0x02, 0x00, 0x00, 0x00, 0x01, 0x00, 0x00, 0x00, 0x08, 0x00, 0x00, 0x00,
    0x6a, 0xfd, 0xff, 0xff, 0x00, 0x00, 0x00, 0x01, 0x14, 0x00, 0x00, 0x00,
    0x1c, 0x00, 0x00, 0x00, 0x1c, 0x00, 0x00, 0x00, 0x08, 0x00, 0x00, 0x00,
    0x6c, 0x00, 0x00, 0x00, 0x02, 0x00, 0x00, 0x00, 0xff, 0xff, 0xff, 0xff,
    0x10, 0x00, 0x00, 0x00, 0x54, 0xfd, 0xff, 0xff, 0x52, 0x00, 0x00, 0x00,
    0x73, 0x65, 0x71, 0x75, 0x65, 0x6e, 0x74, 0x69, 0x61, 0x6c, 0x5f, 0x31,
    0x2f, 0x64, 0x65, 0x6e, 0x73, 0x65, 0x5f, 0x31, 0x2f, 0x4d, 0x61, 0x74,
    0x4d, 0x75, 0x6c, 0x3b, 0x73, 0x65, 0x71, 0x75, 0x65, 0x6e, 0x74, 0x69,
    0x61, 0x6c, 0x5f, 0x31, 0x2f, 0x64, 0x65, 0x6e, 0x73, 0x65, 0x5f, 0x31,
    0x2f, 0x52, 0x65, 0x6c, 0x75, 0x3b, 0x73, 0x65, 0x71, 0x75, 0x65, 0x6e,
    0x74, 0x69, 0x61, 0x6c, 0x5f, 0x31, 0x2f, 0x64, 0x65, 0x6e, 0x73, 0x65,
    0x5f, 0x31, 0x2f, 0x42, 0x69, 0x61, 0x73, 0x41, 0x64, 0x64, 0x00, 0x00,
    0x02, 0x00, 0x00, 0x00, 0x01, 0x00, 0x00, 0x00, 0x10, 0x00, 0x00, 0x00,
    0x76, 0xfe, 0xff, 0xff, 0x00, 0x00, 0x00, 0x01, 0x10, 0x00, 0x00, 0x00,
    0x10, 0x00, 0x00, 0x00, 0x07, 0x00, 0x00, 0x00, 0x44, 0x00, 0x00, 0x00,
    0xd4, 0xfd, 0xff, 0xff, 0x36, 0x00, 0x00, 0x00, 0x73, 0x65, 0x71, 0x75,
    0x65, 0x6e, 0x74, 0x69, 0x61, 0x6c, 0x5f, 0x31, 0x2f, 0x64, 0x65, 0x6e,
    0x73, 0x65, 0x5f, 0x31, 0x2f, 0x52, 0x65, 0x6c, 0x75, 0x3b, 0x73, 0x65,
    0x71, 0x75, 0x65, 0x6e, 0x74, 0x69, 0x61, 0x6c, 0x5f, 0x31, 0x2f, 0x64,
    0x65, 0x6e, 0x73, 0x65, 0x5f, 0x31, 0x2f, 0x42, 0x69, 0x61, 0x73, 0x41,
    0x64, 0x64, 0x00, 0x00, 0x01, 0x00, 0x00, 0x00, 0x10, 0x00, 0x00, 0x00,
    0xd6, 0xfe, 0xff, 0xff, 0x00, 0x00, 0x00, 0x01, 0x10, 0x00, 0x00, 0x00,
    0x10, 0x00, 0x00, 0x00, 0x06, 0x00, 0x00, 0x00, 0x28, 0x00, 0x00, 0x00,
    0x34, 0xfe, 0xff, 0xff, 0x1b, 0x00, 0x00, 0x00, 0x73, 0x65, 0x71, 0x75,
    0x65, 0x6e, 0x74, 0x69, 0x61, 0x6c, 0x5f, 0x31, 0x2f, 0x64, 0x65, 0x6e,
    0x73, 0x65, 0x5f, 0x31, 0x2f, 0x4d, 0x61, 0x74, 0x4d, 0x75, 0x6c, 0x00,
    0x02, 0x00, 0x00, 0x00, 0x10, 0x00, 0x00, 0x00, 0x02, 0x00, 0x00, 0x00,
    0x1e, 0xff, 0xff, 0xff, 0x00, 0x00, 0x00, 0x01, 0x10, 0x00, 0x00, 0x00,
    0x10, 0x00, 0x00, 0x00, 0x05, 0x00, 0x00, 0x00, 0x2c, 0x00, 0x00, 0x00,
    0x7c, 0xfe, 0xff, 0xff, 0x1d, 0x00, 0x00, 0x00, 0x73, 0x65, 0x71, 0x75,
    0x65, 0x6e, 0x74, 0x69, 0x61, 0x6c, 0x5f, 0x31, 0x2f, 0x64, 0x65, 0x6e,
    0x73, 0x65, 0x5f, 0x31, 0x5f, 0x32, 0x2f, 0x4d, 0x61, 0x74, 0x4d, 0x75,
    0x6c, 0x00, 0x00, 0x00, 0x02, 0x00, 0x00, 0x00, 0x08, 0x00, 0x00, 0x00,
    0x10, 0x00, 0x00, 0x00, 0x6a, 0xff, 0xff, 0xff, 0x00, 0x00, 0x00, 0x01,
    0x10, 0x00, 0x00, 0x00, 0x10, 0x00, 0x00, 0x00, 0x04, 0x00, 0x00, 0x00,
    0x2c, 0x00, 0x00, 0x00, 0xc8, 0xfe, 0xff, 0xff, 0x1d, 0x00, 0x00, 0x00,
    0x73, 0x65, 0x71, 0x75, 0x65, 0x6e, 0x74, 0x69, 0x61, 0x6c, 0x5f, 0x31,
    0x2f, 0x64, 0x65, 0x6e, 0x73, 0x65, 0x5f, 0x32, 0x5f, 0x31, 0x2f, 0x4d,
    0x61, 0x74, 0x4d, 0x75, 0x6c, 0x00, 0x00, 0x00, 0x02, 0x00, 0x00, 0x00,
    0x04, 0x00, 0x00, 0x00, 0x08, 0x00, 0x00, 0x00, 0xb6, 0xff, 0xff, 0xff,
    0x00, 0x00, 0x00, 0x01, 0x10, 0x00, 0x00, 0x00, 0x10, 0x00, 0x00, 0x00,
    0x03, 0x00, 0x00, 0x00, 0x2c, 0x00, 0x00, 0x00, 0x14, 0xff, 0xff, 0xff,
    0x1e, 0x00, 0x00, 0x00, 0x73, 0x65, 0x71, 0x75, 0x65, 0x6e, 0x74, 0x69,
    0x61, 0x6c, 0x5f, 0x31, 0x2f, 0x64, 0x65, 0x6e, 0x73, 0x65, 0x5f, 0x32,
    0x5f, 0x31, 0x2f, 0x42, 0x69, 0x61, 0x73, 0x41, 0x64, 0x64, 0x00, 0x00,
    0x01, 0x00, 0x00, 0x00, 0x04, 0x00, 0x00, 0x00, 0x00, 0x00, 0x16, 0x00,
    0x18, 0x00, 0x14, 0x00, 0x00, 0x00, 0x10, 0x00, 0x0c, 0x00, 0x08, 0x00,
    0x00, 0x00, 0x00, 0x00, 0x00, 0x00, 0x07, 0x00, 0x16, 0x00, 0x00, 0x00,
    0x00, 0x00, 0x00, 0x01, 0x10, 0x00, 0x00, 0x00, 0x10, 0x00, 0x00, 0x00,
    0x02, 0x00, 0x00, 0x00, 0x48, 0x00, 0x00, 0x00, 0x74, 0xff, 0xff, 0xff,
    0x3a, 0x00, 0x00, 0x00, 0x73, 0x65, 0x71, 0x75, 0x65, 0x6e, 0x74, 0x69,
    0x61, 0x6c, 0x5f, 0x31, 0x2f, 0x64, 0x65, 0x6e, 0x73, 0x65, 0x5f, 0x31,
    0x5f, 0x32, 0x2f, 0x52, 0x65, 0x6c, 0x75, 0x3b, 0x73, 0x65, 0x71, 0x75,
    0x65, 0x6e, 0x74, 0x69, 0x61, 0x6c, 0x5f, 0x31, 0x2f, 0x64, 0x65, 0x6e,
    0x73, 0x65, 0x5f, 0x31, 0x5f, 0x32, 0x2f, 0x42, 0x69, 0x61, 0x73, 0x41,
    0x64, 0x64, 0x00, 0x00, 0x01, 0x00, 0x00, 0x00, 0x08, 0x00, 0x00, 0x00,
    0x00, 0x00, 0x16, 0x00, 0x1c, 0x00, 0x18, 0x00, 0x00, 0x00, 0x14, 0x00,
    0x10, 0x00, 0x0c, 0x00, 0x00, 0x00, 0x00, 0x00, 0x08, 0x00, 0x07, 0x00,
    0x16, 0x00, 0x00, 0x00, 0x00, 0x00, 0x00, 0x01, 0x14, 0x00, 0x00, 0x00,
    0x20, 0x00, 0x00, 0x00, 0x20, 0x00, 0x00, 0x00, 0x01, 0x00, 0x00, 0x00,
    0x3c, 0x00, 0x00, 0x00, 0x02, 0x00, 0x00, 0x00, 0xff, 0xff, 0xff, 0xff,
    0x02, 0x00, 0x00, 0x00, 0x04, 0x00, 0x04, 0x00, 0x04, 0x00, 0x00, 0x00,
    0x1e, 0x00, 0x00, 0x00, 0x73, 0x65, 0x72, 0x76, 0x69, 0x6e, 0x67, 0x5f,
    0x64, 0x65, 0x66, 0x61, 0x75, 0x6c, 0x74, 0x5f, 0x6b, 0x65, 0x72, 0x61,
    0x73, 0x5f, 0x74, 0x65, 0x6e, 0x73, 0x6f, 0x72, 0x3a, 0x30, 0x00, 0x00,
    0x02, 0x00, 0x00, 0x00, 0x01, 0x00, 0x00, 0x00, 0x02, 0x00, 0x00, 0x00,
    0x02, 0x00, 0x00, 0x00, 0x20, 0x00, 0x00, 0x00, 0x04, 0x00, 0x00, 0x00,
    0xf4, 0xff, 0xff, 0xff, 0x19, 0x00, 0x00, 0x00, 0x00, 0x00, 0x00, 0x19,
    0x0c, 0x00, 0x0c, 0x00, 0x0b, 0x00, 0x00, 0x00, 0x00, 0x00, 0x04, 0x00,
    0x0c, 0x00, 0x00, 0x00, 0x09, 0x00, 0x00, 0x00, 0x00, 0x00, 0x00, 0x09};
